<blk>	-0.0000
<sos/eos>	-0.6931
<unk>	-1.0986
▁	-1.3863
t	-1.6094
e	-1.7918
en	-1.9459
s	-2.0794
.	-2.1972
n	-2.3026
er	-2.3979
,	-2.4849
r	-2.5649
o	-2.6391
▁und	-2.7081
g	-2.7726
a	-2.8332
▁die	-2.8904
l	-2.9444
m	-2.9957
i	-3.0445
k	-3.0910
u	-3.1355
▁das	-3.1781
f	-3.2189
h	-3.2581
▁ist	-3.2958
b	-3.3322
d	-3.3673
▁ich	-3.4012
st	-3.4340
▁der	-3.4657
▁ein	-3.4965
in	-3.5264
▁in	-3.5553
ä	-3.5835
▁ge	-3.6109
ge	-3.6376
▁auch	-3.6636
p	-3.6889
w	-3.7136
▁so	-3.7377
▁zu	-3.7612
▁wir	-3.7842
▁es	-3.8067
te	-3.8286
ch	-3.8501
▁nicht	-3.8712
sch	-3.8918
ra	-3.9120
el	-3.9318
▁da	-3.9512
▁den	-3.9703
ung	-3.9890
ar	-4.0073
ck	-4.0254
it	-4.0431
▁F	-4.0604
an	-4.0775
ig	-4.0943
ie	-4.1109
ü	-4.1271
▁mit	-4.1431
le	-4.1589
z	-4.1744
▁be	-4.1897
▁D	-4.2047
de	-4.2195
ö	-4.2341
▁auf	-4.2485
al	-4.2627
▁dann	-4.2767
▁K	-4.2905
lich	-4.3041
▁H	-4.3175
es	-4.3307
▁B	-4.3438
▁S	-4.3567
▁k	-4.3694
▁M	-4.3820
▁f	-4.3944
▁hier	-4.4067
▁W	-4.4188
▁eine	-4.4308
ten	-4.4427
▁T	-4.4543
se	-4.4659
gen	-4.4773
▁man	-4.4886
▁L	-4.4998
re	-4.5109
▁an	-4.5218
▁P	-4.5326
ein	-4.5433
▁jetzt	-4.5539
▁ver	-4.5643
-	-4.5747
▁dass	-4.5850
▁A	-4.5951
ter	-4.6052
v	-4.6151
or	-4.6250
▁diese	-4.6347
▁von	-4.6444
▁noch	-4.6540
la	-4.6634
▁er	-4.6728
y	-4.6821
and	-4.6913
▁G	-4.7005
il	-4.7095
▁ja	-4.7185
▁haben	-4.7274
▁für	-4.7362
tz	-4.7449
mm	-4.7536
on	-4.7622
au	-4.7707
c	-4.7791
li	-4.7875
▁b	-4.7958
ut	-4.8040
un	-4.8122
at	-4.8203
ur	-4.8283
▁sich	-4.8363
▁aus	-4.8442
▁was	-4.8520
▁sie	-4.8598
▁N	-4.8675
▁d	-4.8752
ro	-4.8828
▁im	-4.8903
▁hat	-4.8978
▁wie	-4.9053
▁bei	-4.9127
▁mal	-4.9200
ß	-4.9273
▁kann	-4.9345
▁du	-4.9416
▁sind	-4.9488
am	-4.9558
▁E	-4.9628
▁ihr	-4.9698
▁war	-4.9767
▁dem	-4.9836
▁w	-4.9904
is	-4.9972
▁p	-5.0039
ben	-5.0106
▁g	-5.0173
den	-5.0239
▁aber	-5.0304
ol	-5.0370
und	-5.0434
▁wenn	-5.0499
ne	-5.0562
▁oder	-5.0626
?	-5.0689
be	-5.0752
ze	-5.0814
▁St	-5.0876
▁Das	-5.0938
ff	-5.0999
▁habe	-5.1059
ri	-5.1120
▁Und	-5.1180
ing	-5.1240
▁sch	-5.1299
rei	-5.1358
▁m	-5.1417
▁h	-5.1475
▁Sch	-5.1533
uch	-5.1591
um	-5.1648
der	-5.1705
▁ganz	-5.1761
▁vor	-5.1818
icht	-5.1874
▁also	-5.1930
mal	-5.1985
▁schon	-5.2040
▁Die	-5.2095
▁Be	-5.2149
he	-5.2204
▁Ge	-5.2257
▁Ich	-5.2311
▁R	-5.2364
rü	-5.2417
hr	-5.2470
ann	-5.2523
iert	-5.2575
▁C	-5.2627
ber	-5.2679
end	-5.2730
▁als	-5.2781
ach	-5.2832
hl	-5.2883
▁viel	-5.2933
▁sehr	-5.2983
▁über	-5.3033
▁einfach	-5.3083
▁uns	-5.3132
▁st	-5.3181
▁sein	-5.3230
em	-5.3279
zu	-5.3327
ern	-5.3375
▁wird	-5.3423
▁nach	-5.3471
ft	-5.3519
ste	-5.3566
hn	-5.3613
us	-5.3660
I	-5.3706
wei	-5.3753
me	-5.3799
chen	-5.3845
lo	-5.3891
as	-5.3936
▁des	-5.3982
▁ko	-5.4027
oll	-5.4072
▁O	-5.4116
▁um	-5.4161
aus	-5.4205
ir	-5.4250
ell	-5.4293
0	-5.4337
▁zum	-5.4381
▁In	-5.4424
▁immer	-5.4467
stell	-5.4510
▁mir	-5.4553
ort	-5.4596
ik	-5.4638
▁einen	-5.4681
▁je	-5.4723
▁re	-5.4765
sp	-5.4806
▁Sie	-5.4848
ru	-5.4889
▁wieder	-5.4931
▁Da	-5.4972
▁alle	-5.5013
all	-5.5053
halt	-5.5094
▁werden	-5.5134
et	-5.5175
kommen	-5.5215
▁mehr	-5.5255
▁nur	-5.5294
!	-5.5334
▁ab	-5.5373
▁gut	-5.5413
▁Ver	-5.5452
iv	-5.5491
V	-5.5530
ab	-5.5568
che	-5.5607
▁wo	-5.5645
▁muss	-5.5683
ieren	-5.5722
▁An	-5.5759
▁bisschen	-5.5797
zi	-5.5835
pp	-5.5872
▁gibt	-5.5910
igen	-5.5947
rie	-5.5984
ist	-5.6021
▁weil	-5.6058
▁Ma	-5.6095
▁natürlich	-5.6131
▁Er	-5.6168
▁mich	-5.6204
lei	-5.6240
▁Re	-5.6276
ür	-5.6312
wi	-5.6348
ation	-5.6384
ungen	-5.6419
di	-5.6454
ion	-5.6490
▁Wir	-5.6525
▁erst	-5.6560
▁machen	-5.6595
nen	-5.6630
▁Z	-5.6664
:	-5.6699
▁andere	-5.6733
▁Ein	-5.6768
ma	-5.6802
ekt	-5.6836
äh	-5.6870
lä	-5.6904
▁meine	-5.6937
▁U	-5.6971
nder	-5.7004
pf	-5.7038
ich	-5.7071
▁können	-5.7104
her	-5.7137
▁unter	-5.7170
▁sa	-5.7203
▁ent	-5.7236
art	-5.7268
weg	-5.7301
isch	-5.7333
▁Ko	-5.7366
▁sp	-5.7398
▁geht	-5.7430
ho	-5.7462
▁Sp	-5.7494
ul	-5.7526
ad	-5.7557
▁bin	-5.7589
id	-5.7621
▁durch	-5.7652
▁einem	-5.7683
▁So	-5.7714
▁hin	-5.7746
wa	-5.7777
j	-5.7807
▁zwei	-5.7838
▁weiter	-5.7869
ungs	-5.7900
ver	-5.7930
▁bis	-5.7961
▁wirklich	-5.7991
▁am	-5.8021
▁euch	-5.8051
reich	-5.8081
x	-5.8111
▁wurde	-5.8141
acht	-5.8171
▁ob	-5.8201
▁dir	-5.8230
▁soll	-5.8260
spiel	-5.8289
ische	-5.8319
▁sagen	-5.8348
▁Also	-5.8377
J	-5.8406
▁Es	-5.8435
ischen	-5.8464
▁1	-5.8493
▁eigentlich	-5.8522
teil	-5.8551
▁eben	-5.8579
▁mein	-5.8608
▁Ja	-5.8636
lass	-5.8665
▁alles	-5.8693
arbeit	-5.8721
▁vielleicht	-5.8749
▁her	-5.8777
▁unsere	-5.8805
schaft	-5.8833
▁Jahr	-5.8861
▁heißt	-5.8889
▁Zu	-5.8916
fahr	-5.8944
▁Pro	-5.8972
▁ma	-5.8999
akt	-5.9026
ment	-5.9054
▁könnt	-5.9081
▁Al	-5.9108
▁finde	-5.9135
▁hab	-5.9162
ord	-5.9189
▁Was	-5.9216
gehen	-5.9243
nehmen	-5.9269
S	-5.9296
▁damit	-5.9322
fall	-5.9349
2	-5.9375
leg	-5.9402
'	-5.9428
▁ange	-5.9454
▁schön	-5.9480
heit	-5.9506
▁heute	-5.9532
▁würde	-5.9558
▁genau	-5.9584
äng	-5.9610
ex	-5.9636
uss	-5.9661
ühr	-5.9687
anz	-5.9713
zeit	-5.9738
▁Mo	-5.9764
▁groß	-5.9789
▁sei	-5.9814
▁will	-5.9839
▁Aber	-5.9865
▁gleich	-5.9890
pass	-5.9915
▁gerade	-5.9940
▁Aus	-5.9965
▁dein	-5.9989
▁doch	-6.0014
bau	-6.0039
▁möchte	-6.0064
▁richtig	-6.0088
schau	-6.0113
▁gesagt	-6.0137
▁weiß	-6.0162
▁neue	-6.0186
▁macht	-6.0210
▁kleine	-6.0234
▁sehen	-6.0259
▁etwas	-6.0283
▁Vor	-6.0307
▁wichtig	-6.0331
▁Zeit	-6.0355
A	-6.0379
▁hatte	-6.0403
▁glaube	-6.0426
5	-6.0450
▁Beispiel	-6.0474
▁Auf	-6.0497
▁lang	-6.0521
3	-6.0544
▁Wenn	-6.0568
▁hast	-6.0591
▁dich	-6.0615
▁müssen	-6.0638
▁gemacht	-6.0661
zieh	-6.0684
ktion	-6.0707
▁sondern	-6.0730
P	-6.0753
T	-6.0776
D	-6.0799
E	-6.0822
4	-6.0845
q	-6.0868
M	-6.0890
R	-6.0913
B	-6.0936
1	-6.0958
C	-6.0981
Ü	-6.1003
9	-6.1026
6	-6.1048
8	-6.1070
K	-6.1092
Q	-6.1115
N	-6.1137
L	-6.1159
F	-6.1181
O	-6.1203
G	-6.1225
7	-6.1247
W	-6.1269
Y	-6.1291
U	-6.1312
H	-6.1334
Ö	-6.1356
Ä	-6.1377
X	-6.1399
Z	-6.1420
;	-6.1442
é	-6.1463
\	-6.1485
%	-6.1506
„	-6.1527
/	-6.1549
*	-6.1570
+	-6.1591
“	-6.1612
[	-6.1633
€	-6.1654
á	-6.1675
#	-6.1696
°	-6.1717
<	-6.1738
>	-6.1759
è	-6.1779
í	-6.1800
’	-6.1821
ó	-6.1841
à	-6.1862
&	-6.1883
ō	-6.1903
ë	-6.1924
ú	-6.1944
š	-6.1964
ô	-6.1985
ø	-6.2005
ñ	-6.2025
@	-6.2046
$	-6.2066
ê	-6.2086
ç	-6.2106
=	-6.2126
Š	-6.2146
–	-6.2166
ć	-6.2186
É	-6.2206
ı	-6.2226
(	-6.2246
â	-6.2265
_	-6.2285
ł	-6.2305
ã	-6.2324
ğ	-6.2344
î	-6.2364
č	-6.2383
ş	-6.2403
)	-6.2422
ā	-6.2442
å	-6.2461
ř	-6.2480
Á	-6.2500
û	-6.2519
ž	-6.2538
ý	-6.2558
ū	-6.2577
Ÿ	-6.2596
ș	-6.2615
‘	-6.2634
Ç	-6.2653
Č	-6.2672
Ş	-6.2691
‚	-6.2710
ī	-6.2729
«	-6.2748
ù	-6.2766
ě	-6.2785
»	-6.2804
İ	-6.2823
ś	-6.2841
ă	-6.2860
ò	-6.2879
Ō	-6.2897
ț	-6.2916
ì	-6.2934
ï	-6.2953
ə	-6.2971
æ	-6.2989
ń	-6.3008
Œ	-6.3026
ð	-6.3044
Ã	-6.3063
Ó	-6.3081
Ø	-6.3099
Î	-6.3117
Ž	-6.3135
Å	-6.3154
œ	-6.3172
Ś	-6.3190
ʿ	-6.3208
À	-6.3226
Í	-6.3244
Đ	-6.3261
Æ	-6.3279
Â	-6.3297
ą	-6.3315
ė	-6.3333
ę	-6.3351
Ł	-6.3368
ň	-6.3386
È	-6.3404
đ	-6.3421
ů	-6.3439
́	-6.3456
Ú	-6.3474
Ș	-6.3491
Ð	-6.3509
Ř	-6.3526
ơ	-6.3544
ư	-6.3561
ʻ	-6.3578
ạ	-6.3596
ộ	-6.3613
ő	-6.3630
Ż	-6.3648
ż	-6.3665
ḥ	-6.3682
ź	-6.3699
”	-6.3716
ġ	-6.3733
а	-6.3750
ē	-6.3767
ť	-6.3784
Ḫ	-6.3801
и	-6.3818
õ	-6.3835
Ő	-6.3852
е	-6.3869
р	-6.3886
ф	-6.3902
Þ	-6.3919
Ê	-6.3936
Ñ	-6.3953
Ô	-6.3969
ÿ	-6.3986
ď	-6.4003
Ī	-6.4019
ĭ	-6.4036
ǐ	-6.4052
ǔ	-6.4069
в	-6.4085
м	-6.4102
о	-6.4118
ḫ	-6.4135
ṣ	-6.4151
ṭ	-6.4167
ẞ	-6.4184
ả	-6.4200
ế	-6.4216
ị	-6.4232
ố	-6.4249
ŏ	-6.4265
Ĺ	-6.4281
Ə	-6.4297
С	-6.4313
Ć	-6.4329
Ħ	-6.4345
`	-6.4362
Ā	-6.4378
ņ	-6.4394
ű	-6.4409
ǒ	-6.4425
ǧ	-6.4441
Ț	-6.4457
Ш	-6.4473
к	-6.4489
ч	-6.4505
ш	-6.4520
ע	-6.4536
ḿ	-6.4552
ṃ	-6.4568
ṛ	-6.4583
ṟ	-6.4599
ấ	-6.4615
ầ	-6.4630
ắ	-6.4646
ằ	-6.4661
ẹ	-6.4677
ễ	-6.4693
ở	-6.4708
ụ	-6.4723
Ò	-6.4739
י	-6.4754
ש	-6.4770
#0	-6.4785
#1	-6.4800
#2	-6.4816
#3	-6.4831
#4	-6.4846
#5	-6.4862
#6	-6.4877
